TRT-5105-EntropyCalibration2
data: 40000889
(Unnamed Layer* 0) [Constant]_output: 4000890a
(Unnamed Layer* 1) [ElementWise]_output: 3c008912
(Unnamed Layer* 2) [Convolution]_output: 3c543871
(Unnamed Layer* 3) [Scale]_output: 3d8fb022
(Unnamed Layer* 4) [PluginV2]_output_0: 3d5319bc
(Unnamed Layer* 5) [Convolution]_output: 3e19c168
(Unnamed Layer* 6) [Scale]_output: 3d7fb2e9
(Unnamed Layer* 7) [PluginV2]_output_0: 3d1a0ade
(Unnamed Layer* 8) [Convolution]_output: 3d81b56e
(Unnamed Layer* 9) [Scale]_output: 3d5bf642
(Unnamed Layer* 10) [PluginV2]_output_0: 3d1d1438
(Unnamed Layer* 11) [Convolution]_output: 3dc5e30a
(Unnamed Layer* 12) [Scale]_output: 3da8d152
(Unnamed Layer* 13) [PluginV2]_output_0: 3d20f3b3
(Unnamed Layer* 14) [ElementWise]_output: 3d83df0d
(Unnamed Layer* 15) [Convolution]_output: 3e3794f2
(Unnamed Layer* 16) [Scale]_output: 3db73e4c
(Unnamed Layer* 17) [PluginV2]_output_0: 3d53b281
(Unnamed Layer* 18) [Convolution]_output: 3d1cc1a5
(Unnamed Layer* 19) [Scale]_output: 3d18ecaa
(Unnamed Layer* 20) [PluginV2]_output_0: 3cbb4f09
(Unnamed Layer* 21) [Convolution]_output: 3d1a29d3
(Unnamed Layer* 22) [Scale]_output: 3d0b8d82
(Unnamed Layer* 23) [PluginV2]_output_0: 3c8ac013
(Unnamed Layer* 24) [ElementWise]_output: 3d43051e
(Unnamed Layer* 25) [Convolution]_output: 3d822e30
(Unnamed Layer* 26) [Scale]_output: 3dab1301
(Unnamed Layer* 27) [PluginV2]_output_0: 3ce79084
(Unnamed Layer* 28) [Convolution]_output: 3d6c3e7b
(Unnamed Layer* 29) [Scale]_output: 3daf2592
(Unnamed Layer* 30) [PluginV2]_output_0: 3d0154c4
(Unnamed Layer* 31) [ElementWise]_output: 3d6bae82
(Unnamed Layer* 32) [Convolution]_output: 3e2ee9c2
(Unnamed Layer* 33) [Scale]_output: 3d808a85
(Unnamed Layer* 34) [PluginV2]_output_0: 3d1169b1
(Unnamed Layer* 35) [Convolution]_output: 3cf54b46
(Unnamed Layer* 36) [Scale]_output: 3d770108
(Unnamed Layer* 37) [PluginV2]_output_0: 3cb8e491
(Unnamed Layer* 38) [Convolution]_output: 3ce0d37a
(Unnamed Layer* 39) [Scale]_output: 3d32af49
(Unnamed Layer* 40) [PluginV2]_output_0: 3c97c034
(Unnamed Layer* 41) [ElementWise]_output: 3d23b5cb
(Unnamed Layer* 42) [Convolution]_output: 3cfee07f
(Unnamed Layer* 43) [Scale]_output: 3d867a07
(Unnamed Layer* 44) [PluginV2]_output_0: 3d15e225
(Unnamed Layer* 45) [Convolution]_output: 3d219384
(Unnamed Layer* 46) [Scale]_output: 3d37963f
(Unnamed Layer* 47) [PluginV2]_output_0: 3ca95c02
(Unnamed Layer* 48) [ElementWise]_output: 3d30b6b2
(Unnamed Layer* 49) [Convolution]_output: 3d2e0ebb
(Unnamed Layer* 50) [Scale]_output: 3d5f18b6
(Unnamed Layer* 51) [PluginV2]_output_0: 3d15a418
(Unnamed Layer* 52) [Convolution]_output: 3d084e39
(Unnamed Layer* 53) [Scale]_output: 3d5fd5ef
(Unnamed Layer* 54) [PluginV2]_output_0: 3cb32770
(Unnamed Layer* 55) [ElementWise]_output: 3d36f866
(Unnamed Layer* 56) [Convolution]_output: 3d14553f
(Unnamed Layer* 57) [Scale]_output: 3d47e531
(Unnamed Layer* 58) [PluginV2]_output_0: 3d15eac3
(Unnamed Layer* 59) [Convolution]_output: 3d48fa41
(Unnamed Layer* 60) [Scale]_output: 3d4cc444
(Unnamed Layer* 61) [PluginV2]_output_0: 3cce3a28
(Unnamed Layer* 62) [ElementWise]_output: 3d6ca62e
(Unnamed Layer* 63) [Convolution]_output: 3d5fb72d
(Unnamed Layer* 64) [Scale]_output: 3d90d011
(Unnamed Layer* 65) [PluginV2]_output_0: 3cdd8978
(Unnamed Layer* 66) [Convolution]_output: 3d1171d0
(Unnamed Layer* 67) [Scale]_output: 3d5accaa
(Unnamed Layer* 68) [PluginV2]_output_0: 3d0dd811
(Unnamed Layer* 69) [ElementWise]_output: 3d7f1fc8
(Unnamed Layer* 70) [Convolution]_output: 3d6b96a7
(Unnamed Layer* 71) [Scale]_output: 3d759a43
(Unnamed Layer* 72) [PluginV2]_output_0: 3cf8babd
(Unnamed Layer* 73) [Convolution]_output: 3d122c2d
(Unnamed Layer* 74) [Scale]_output: 3d513361
(Unnamed Layer* 75) [PluginV2]_output_0: 3ce6ba84
(Unnamed Layer* 76) [ElementWise]_output: 3d78ee3a
(Unnamed Layer* 77) [Convolution]_output: 3d8fd0d9
(Unnamed Layer* 78) [Scale]_output: 3d3bca15
(Unnamed Layer* 79) [PluginV2]_output_0: 3cb85289
(Unnamed Layer* 80) [Convolution]_output: 3cf0105b
(Unnamed Layer* 81) [Scale]_output: 3d876e18
(Unnamed Layer* 82) [PluginV2]_output_0: 3d0c60cc
(Unnamed Layer* 83) [ElementWise]_output: 3da9004a
(Unnamed Layer* 84) [Convolution]_output: 3dbdafe2
(Unnamed Layer* 85) [Scale]_output: 3d380e92
(Unnamed Layer* 86) [PluginV2]_output_0: 3cdf4c7c
(Unnamed Layer* 87) [Convolution]_output: 3ce12d4b
(Unnamed Layer* 88) [Scale]_output: 3da657f6
(Unnamed Layer* 89) [PluginV2]_output_0: 3d14d7e5
(Unnamed Layer* 90) [ElementWise]_output: 3dbfca1c
(Unnamed Layer* 91) [Convolution]_output: 3e20816e
(Unnamed Layer* 92) [Scale]_output: 3d9b175c
(Unnamed Layer* 93) [PluginV2]_output_0: 3d07ce00
(Unnamed Layer* 94) [Convolution]_output: 3cb1814f
(Unnamed Layer* 95) [Scale]_output: 3d875f76
(Unnamed Layer* 96) [PluginV2]_output_0: 3d13b001
(Unnamed Layer* 97) [Convolution]_output: 3d2b5e83
(Unnamed Layer* 98) [Scale]_output: 3d0ec77e
(Unnamed Layer* 99) [PluginV2]_output_0: 3c240322
(Unnamed Layer* 100) [ElementWise]_output: 3ce75f73
(Unnamed Layer* 101) [Convolution]_output: 3cd801fc
(Unnamed Layer* 102) [Scale]_output: 3d829be0
(Unnamed Layer* 103) [PluginV2]_output_0: 3d070af2
(Unnamed Layer* 104) [Convolution]_output: 3d39fe84
(Unnamed Layer* 105) [Scale]_output: 3d22340a
(Unnamed Layer* 106) [PluginV2]_output_0: 3c8efa08
(Unnamed Layer* 107) [ElementWise]_output: 3d048924
(Unnamed Layer* 108) [Convolution]_output: 3d1c7b6c
(Unnamed Layer* 109) [Scale]_output: 3d63c0cf
(Unnamed Layer* 110) [PluginV2]_output_0: 3ce954b4
(Unnamed Layer* 111) [Convolution]_output: 3cabdaf8
(Unnamed Layer* 112) [Scale]_output: 3d1aa182
(Unnamed Layer* 113) [PluginV2]_output_0: 3ceb216f
(Unnamed Layer* 114) [ElementWise]_output: 3d22af5d
(Unnamed Layer* 115) [Convolution]_output: 3d0433ef
(Unnamed Layer* 116) [Scale]_output: 3d7ac19e
(Unnamed Layer* 117) [PluginV2]_output_0: 3cdd3e3a
(Unnamed Layer* 118) [Convolution]_output: 3ce1af50
(Unnamed Layer* 119) [Scale]_output: 3d40925b
(Unnamed Layer* 120) [PluginV2]_output_0: 3cb662f1
(Unnamed Layer* 121) [ElementWise]_output: 3d44ba89
(Unnamed Layer* 122) [Convolution]_output: 3d2d94ff
(Unnamed Layer* 123) [Scale]_output: 3d826dab
(Unnamed Layer* 124) [PluginV2]_output_0: 3cdc3d6f
(Unnamed Layer* 125) [Convolution]_output: 3ca0e252
(Unnamed Layer* 126) [Scale]_output: 3d781160
(Unnamed Layer* 127) [PluginV2]_output_0: 3cb415b8
(Unnamed Layer* 128) [ElementWise]_output: 3d606320
(Unnamed Layer* 129) [Convolution]_output: 3d7f7acd
(Unnamed Layer* 130) [Scale]_output: 3d851f2a
(Unnamed Layer* 131) [PluginV2]_output_0: 3cc54d38
(Unnamed Layer* 132) [Convolution]_output: 3cddf648
(Unnamed Layer* 133) [Scale]_output: 3db1e160
(Unnamed Layer* 134) [PluginV2]_output_0: 3d3f2516
(Unnamed Layer* 135) [ElementWise]_output: 3d93993b
(Unnamed Layer* 136) [Convolution]_output: 3d85c1a1
(Unnamed Layer* 137) [Scale]_output: 3d9eb9cd
(Unnamed Layer* 138) [PluginV2]_output_0: 3d0274c9
(Unnamed Layer* 139) [Convolution]_output: 3d1518b9
(Unnamed Layer* 140) [Scale]_output: 3d7cdb67
(Unnamed Layer* 141) [PluginV2]_output_0: 3cf1fcab
(Unnamed Layer* 142) [ElementWise]_output: 3dac4852
(Unnamed Layer* 143) [Convolution]_output: 3dcc8a81
(Unnamed Layer* 144) [Scale]_output: 3db49d2a
(Unnamed Layer* 145) [PluginV2]_output_0: 3cb2a91f
(Unnamed Layer* 146) [Convolution]_output: 3ccdc47a
(Unnamed Layer* 147) [Scale]_output: 3de12c25
(Unnamed Layer* 148) [PluginV2]_output_0: 3d0c27a5
(Unnamed Layer* 149) [ElementWise]_output: 3da5f1ab
(Unnamed Layer* 150) [Convolution]_output: 3e5ba664
(Unnamed Layer* 151) [Scale]_output: 3ddcb6c3
(Unnamed Layer* 152) [PluginV2]_output_0: 3cba1d92
(Unnamed Layer* 153) [Convolution]_output: 3cfa698e
(Unnamed Layer* 154) [Scale]_output: 3ddebf7c
(Unnamed Layer* 155) [PluginV2]_output_0: 3d2bd562
(Unnamed Layer* 156) [Convolution]_output: 3d8266e1
(Unnamed Layer* 157) [Scale]_output: 3d86f257
(Unnamed Layer* 158) [PluginV2]_output_0: 3c980b8e
(Unnamed Layer* 159) [ElementWise]_output: 3ccb23fe
(Unnamed Layer* 160) [Convolution]_output: 3d6e1d3e
(Unnamed Layer* 161) [Scale]_output: 3e010290
(Unnamed Layer* 162) [PluginV2]_output_0: 3ccd587d
(Unnamed Layer* 163) [Convolution]_output: 3cf63bc1
(Unnamed Layer* 164) [Scale]_output: 3d65f986
(Unnamed Layer* 165) [PluginV2]_output_0: 3cd3de97
(Unnamed Layer* 166) [ElementWise]_output: 3ce68dd2
(Unnamed Layer* 167) [Convolution]_output: 3d775189
(Unnamed Layer* 168) [Scale]_output: 3dfa8512
(Unnamed Layer* 169) [PluginV2]_output_0: 3cd49e8b
(Unnamed Layer* 170) [Convolution]_output: 3d00bb2b
(Unnamed Layer* 171) [Scale]_output: 3db26985
(Unnamed Layer* 172) [PluginV2]_output_0: 3cde9779
(Unnamed Layer* 173) [ElementWise]_output: 3d43bc3f
(Unnamed Layer* 174) [Convolution]_output: 3df6b67f
(Unnamed Layer* 175) [Scale]_output: 3e1ccaf1
(Unnamed Layer* 176) [PluginV2]_output_0: 3c79ebac
(Unnamed Layer* 177) [Convolution]_output: 3cb59964
(Unnamed Layer* 178) [Scale]_output: 3ded6c9f
(Unnamed Layer* 179) [PluginV2]_output_0: 3d325b96
(Unnamed Layer* 180) [ElementWise]_output: 3d969fae
(Unnamed Layer* 181) [Convolution]_output: 3dc6ce7d
(Unnamed Layer* 182) [Scale]_output: 3de2a580
(Unnamed Layer* 183) [PluginV2]_output_0: 3d5f1d87
(Unnamed Layer* 184) [Convolution]_output: 3dc83243
(Unnamed Layer* 185) [Scale]_output: 3dcb74cb
(Unnamed Layer* 186) [PluginV2]_output_0: 3d70df2f
(Unnamed Layer* 187) [Convolution]_output: 3dda5a74
(Unnamed Layer* 188) [Scale]_output: 3ddaab1c
(Unnamed Layer* 189) [PluginV2]_output_0: 3d48fe3d
(Unnamed Layer* 190) [Convolution]_output: 3db16d9d
(Unnamed Layer* 191) [Scale]_output: 3dd70c88
(Unnamed Layer* 192) [PluginV2]_output_0: 3d4d9448
(Unnamed Layer* 193) [Convolution]_output: 3ddfd95d
(Unnamed Layer* 194) [Scale]_output: 3de2c454
(Unnamed Layer* 195) [PluginV2]_output_0: 3d28f6ad
(Unnamed Layer* 196) [Convolution]_output: 3d8e1b0e
(Unnamed Layer* 197) [Scale]_output: 3da01a69
(Unnamed Layer* 198) [PluginV2]_output_0: 3d48c04a
(Unnamed Layer* 199) [Convolution]_output: 3e706869
yolo_83: 3c5ef1ef
(Unnamed Layer* 201) [Convolution]_output: 3d978f05
(Unnamed Layer* 202) [Scale]_output: 3e1474b1
(Unnamed Layer* 203) [PluginV2]_output_0: 3d928354
(Unnamed Layer* 204) [Constant]_output: 3c010a14
(Unnamed Layer* 205) [Constant]_output: 3c010a14
(Unnamed Layer* 206) [Matrix Multiply]_output: 3d928354
(Unnamed Layer* 207) [Matrix Multiply]_output: 3da5f1ab
(Unnamed Layer* 208) [Concatenation]_output: 3da5f1ab
(Unnamed Layer* 209) [Convolution]_output: 3e507125
(Unnamed Layer* 210) [Scale]_output: 3df2da30
(Unnamed Layer* 211) [PluginV2]_output_0: 3d5f9101
(Unnamed Layer* 212) [Convolution]_output: 3e0f87ed
(Unnamed Layer* 213) [Scale]_output: 3df9f43f
(Unnamed Layer* 214) [PluginV2]_output_0: 3d787f4b
(Unnamed Layer* 215) [Convolution]_output: 3df73ae0
(Unnamed Layer* 216) [Scale]_output: 3e016fcd
(Unnamed Layer* 217) [PluginV2]_output_0: 3d27aa9c
(Unnamed Layer* 218) [Convolution]_output: 3dee0e7c
(Unnamed Layer* 219) [Scale]_output: 3df40f4d
(Unnamed Layer* 220) [PluginV2]_output_0: 3d1f47f7
(Unnamed Layer* 221) [Convolution]_output: 3de5b9da
(Unnamed Layer* 222) [Scale]_output: 3e02e13b
(Unnamed Layer* 223) [PluginV2]_output_0: 3d1e600c
(Unnamed Layer* 224) [Convolution]_output: 3daf87f1
(Unnamed Layer* 225) [Scale]_output: 3dc6dd48
(Unnamed Layer* 226) [PluginV2]_output_0: 3d5f167c
(Unnamed Layer* 227) [Convolution]_output: 3e662d21
yolo_95: 3c94a7c6
(Unnamed Layer* 229) [Convolution]_output: 3d9a2f72
(Unnamed Layer* 230) [Scale]_output: 3e470033
(Unnamed Layer* 231) [PluginV2]_output_0: 3d9d6bba
(Unnamed Layer* 232) [Constant]_output: 3c010a14
(Unnamed Layer* 233) [Constant]_output: 3c010a14
(Unnamed Layer* 234) [Matrix Multiply]_output: 3d9d6bba
(Unnamed Layer* 235) [Matrix Multiply]_output: 3dbfca1c
(Unnamed Layer* 236) [Concatenation]_output: 3dbfca1c
(Unnamed Layer* 237) [Convolution]_output: 3e665492
(Unnamed Layer* 238) [Scale]_output: 3df44502
(Unnamed Layer* 239) [PluginV2]_output_0: 3d65996e
(Unnamed Layer* 240) [Convolution]_output: 3e308905
(Unnamed Layer* 241) [Scale]_output: 3de4cff3
(Unnamed Layer* 242) [PluginV2]_output_0: 3d5bdba2
(Unnamed Layer* 243) [Convolution]_output: 3dd84f8b
(Unnamed Layer* 244) [Scale]_output: 3dece063
(Unnamed Layer* 245) [PluginV2]_output_0: 3d64f9da
(Unnamed Layer* 246) [Convolution]_output: 3e2e214e
(Unnamed Layer* 247) [Scale]_output: 3dd7d30c
(Unnamed Layer* 248) [PluginV2]_output_0: 3d5581a1
(Unnamed Layer* 249) [Convolution]_output: 3de5c9c7
(Unnamed Layer* 250) [Scale]_output: 3df2d0b7
(Unnamed Layer* 251) [PluginV2]_output_0: 3d4d80aa
(Unnamed Layer* 252) [Convolution]_output: 3e2c6f24
(Unnamed Layer* 253) [Scale]_output: 3df56fd1
(Unnamed Layer* 254) [PluginV2]_output_0: 3da520ac
(Unnamed Layer* 255) [Convolution]_output: 3ecc0fab
yolo_107: 3c9de76a
